FANN_FLO_2.1
num_layers=4
learning_rate=0.700000
connection_rate=1.000000
network_type=0
learning_momentum=0.000000
training_algorithm=2
train_error_function=1
train_stop_function=1
cascade_output_change_fraction=0.010000
quickprop_decay=-0.000100
quickprop_mu=1.750000
rprop_increase_factor=1.200000
rprop_decrease_factor=0.500000
rprop_delta_min=0.000000
rprop_delta_max=50.000000
rprop_delta_zero=0.100000
cascade_output_stagnation_epochs=12
cascade_candidate_change_fraction=0.010000
cascade_candidate_stagnation_epochs=12
cascade_max_out_epochs=150
cascade_min_out_epochs=50
cascade_max_cand_epochs=150
cascade_min_cand_epochs=50
cascade_num_candidate_groups=2
bit_fail_limit=1.00000000000000002082e-03
cascade_candidate_limit=1.00000000000000000000e+03
cascade_weight_multiplier=4.00000000000000022204e-01
cascade_activation_functions_count=10
cascade_activation_functions=3 5 7 8 10 11 14 15 16 17 
cascade_activation_steepnesses_count=4
cascade_activation_steepnesses=2.50000000000000000000e-01 5.00000000000000000000e-01 7.50000000000000000000e-01 1.00000000000000000000e+00 
layer_sizes=30 16 10 2 
scale_included=0
neurons (num_inputs, activation_function, activation_steepness)=(0, 0, 0.00000000000000000000e+00) (0, 0, 0.00000000000000000000e+00) (0, 0, 0.00000000000000000000e+00) (0, 0, 0.00000000000000000000e+00) (0, 0, 0.00000000000000000000e+00) (0, 0, 0.00000000000000000000e+00) (0, 0, 0.00000000000000000000e+00) (0, 0, 0.00000000000000000000e+00) (0, 0, 0.00000000000000000000e+00) (0, 0, 0.00000000000000000000e+00) (0, 0, 0.00000000000000000000e+00) (0, 0, 0.00000000000000000000e+00) (0, 0, 0.00000000000000000000e+00) (0, 0, 0.00000000000000000000e+00) (0, 0, 0.00000000000000000000e+00) (0, 0, 0.00000000000000000000e+00) (0, 0, 0.00000000000000000000e+00) (0, 0, 0.00000000000000000000e+00) (0, 0, 0.00000000000000000000e+00) (0, 0, 0.00000000000000000000e+00) (0, 0, 0.00000000000000000000e+00) (0, 0, 0.00000000000000000000e+00) (0, 0, 0.00000000000000000000e+00) (0, 0, 0.00000000000000000000e+00) (0, 0, 0.00000000000000000000e+00) (0, 0, 0.00000000000000000000e+00) (0, 0, 0.00000000000000000000e+00) (0, 0, 0.00000000000000000000e+00) (0, 0, 0.00000000000000000000e+00) (0, 0, 0.00000000000000000000e+00) (30, 5, 1.00000000000000000000e+00) (30, 5, 1.00000000000000000000e+00) (30, 5, 1.00000000000000000000e+00) (30, 5, 1.00000000000000000000e+00) (30, 5, 1.00000000000000000000e+00) (30, 5, 1.00000000000000000000e+00) (30, 5, 1.00000000000000000000e+00) (30, 5, 1.00000000000000000000e+00) (30, 5, 1.00000000000000000000e+00) (30, 5, 1.00000000000000000000e+00) (30, 5, 1.00000000000000000000e+00) (30, 5, 1.00000000000000000000e+00) (30, 5, 1.00000000000000000000e+00) (30, 5, 1.00000000000000000000e+00) (30, 5, 1.00000000000000000000e+00) (0, 5, 1.00000000000000000000e+00) (16, 5, 1.00000000000000000000e+00) (16, 5, 1.00000000000000000000e+00) (16, 5, 1.00000000000000000000e+00) (16, 5, 1.00000000000000000000e+00) (16, 5, 1.00000000000000000000e+00) (16, 5, 1.00000000000000000000e+00) (16, 5, 1.00000000000000000000e+00) (16, 5, 1.00000000000000000000e+00) (16, 5, 1.00000000000000000000e+00) (0, 5, 1.00000000000000000000e+00) (10, 5, 1.00000000000000000000e+00) (0, 5, 1.00000000000000000000e+00) 
connections (connected_to_neuron, weight)=(0, -5.74957241189412271432e-01) (1, -9.20586918233250867116e-02) (2, 2.90694998150079542132e-01) (3, 2.99138879079954844720e-01) (4, 3.68880278407596018386e-01) (5, 2.94482384112906447893e-01) (6, 1.55281891164854191079e-01) (7, 2.45018384781063858213e-02) (8, -3.15531290547299669846e-01) (9, -6.62783576996791023994e-01) (10, 6.25412076166721175863e-02) (11, 2.05009511475514355494e-01) (12, 1.20579109162274808464e-01) (13, 1.02978853096218750385e-01) (14, 2.63902619064429411200e-01) (15, 2.43636152796622595940e-01) (16, 5.01639604884893119952e-02) (17, -3.90240882780042916411e-02) (18, 3.28888921101691752980e-02) (19, 6.63737168189335480228e-01) (20, 4.04060182651430843670e-01) (21, 1.95080621315712576802e-01) (22, 3.72384189419421474110e-01) (23, 2.48087351952067658445e-01) (24, -1.71422525375070550213e-01) (25, -8.21133486164150827591e-01) (26, 1.88608085665535496478e-01) (27, 6.27331220305156533890e-01) (28, 1.08815009472532775447e+00) (29, 3.71901247317737604359e-01) (0, 1.94543686887268862939e-01) (1, 2.15080217695920339338e-01) (2, -5.24034948599626099197e-02) (3, 2.02800151966199201925e-02) (4, -2.41881830373224859798e-01) (5, 1.19214166131511797864e-02) (6, -2.06089861418329328702e-01) (7, 2.26431460837932668761e-02) (8, -1.82719841466942256591e-01) (9, -2.09707593713466750387e-03) (10, -1.09775815568150855034e-02) (11, -8.67121605130741074374e-02) (12, 1.51225018741188460547e-01) (13, 1.46843978353247195390e-01) (14, -3.07268086608418589112e-01) (15, 7.97866133736819804767e-02) (16, 3.15558844461348367294e-02) (17, 1.07632695692723989733e-01) (18, 1.04391407717313533521e-01) (19, -1.61670556554891736711e-01) (20, -6.53171817764088002978e-02) (21, -1.32373616564543716834e-01) (22, -7.23086422666321809727e-02) (23, -1.32794680332610576246e-01) (24, 1.79837654637921062761e-01) (25, -2.83089852386977126886e-02) (26, 8.88519445259301939022e-03) (27, -3.14107171618692837534e-01) (28, -1.32471254042450037325e+00) (29, -2.05772937525850962981e-01) (0, 2.55550993800377317100e-02) (1, -2.23233329735625068979e-01) (2, 1.74777500566077770294e-01) (3, -2.14084434292892311635e-01) (4, -1.27307766451884626230e-02) (5, -1.24021338451476767495e-01) (6, 1.87254390672143000707e-01) (7, 6.39336705229866658629e-02) (8, -2.17702819335489003438e-02) (9, 5.21176740534963281459e-02) (10, -2.25438415745119580258e-01) (11, 4.03482254423144226507e-02) (12, -4.41622544400893865535e-02) (13, -3.90518032813092705324e-02) (14, -4.84461933029254498972e-01) (15, -8.20617565491906231223e-02) (16, 6.64801443973208894267e-02) (17, -7.48055950987636022326e-03) (18, 8.80329642470728118697e-02) (19, 5.83640577467638282938e-02) (20, -7.37078435302325474243e-02) (21, -9.31294686871095706016e-02) (22, 9.02969746368476600118e-02) (23, -7.37025825718093524630e-02) (24, 5.80856180667053551003e-02) (25, 2.81698477808534908373e-02) (26, 1.18709076230921667383e-01) (27, -2.14519317024123773452e-01) (28, -5.83788739753325236492e-01) (29, 8.27577562010297529405e-01) (0, 1.39896617058578720538e+00) (1, 1.27427965021376898846e+00) (2, 8.29312701567528787194e-01) (3, 1.07622948728599698853e+00) (4, 5.67343334094932760792e-01) (5, -1.51463317057997270965e+00) (6, 1.96797951227802664365e-01) (7, 4.62259508839200805586e-01) (8, 7.69890064431055454186e-01) (9, 7.72960127644718220097e-01) (10, 5.06945068788680397454e-01) (11, -4.41001708247378998440e-01) (12, -9.37751448625508271517e-02) (13, -1.58083586098332906644e+00) (14, -1.25851477287330015820e+00) (15, -8.81272615915178292312e+00) (16, 8.04592698934330913252e-02) (17, 2.25444027948596054101e-01) (18, 5.11747921672377259483e-01) (19, -8.53010161769841346313e-01) (20, 2.95535517773334477365e-01) (21, 4.02027753309884994248e-01) (22, 1.71440033199255870144e+00) (23, 1.94288443767278384833e+00) (24, 1.71985722200271018423e+00) (25, 4.69477380638410490832e+00) (26, 2.38294134499111676107e+00) (27, 3.10504039660320807492e-01) (28, 8.08990744816013074292e-01) (29, 1.49290945671722380395e-01) (0, -1.19276720411436387703e-01) (1, 5.66537575410679117294e-02) (2, -2.76280377744074212565e-01) (3, 1.80428385906847676967e-01) (4, -1.62219749186093664672e-01) (5, 2.36567373041689149593e-01) (6, -1.82878935910436690726e-01) (7, -1.46851774031400678089e-01) (8, 1.17123654711090971481e-01) (9, -6.05134332437786276460e-02) (10, 1.97107464711840207894e-01) (11, -1.64140696942506152112e-02) (12, -8.58478625186601951302e-02) (13, -1.70493688871901534487e-02) (14, -1.25589126061369737997e-01) (15, 1.64699432427443365201e-01) (16, -5.56962660710354773297e-02) (17, -2.67266474136972576048e-01) (18, 4.69175016848101950062e-02) (19, -4.74162198924635118480e-03) (20, 1.74218337702072179063e-01) (21, -1.22423994471140731854e-01) (22, 2.47845206938179241085e-02) (23, -2.50561813543195399667e-01) (24, -2.30821157625870736207e-02) (25, -1.63029285933665099573e-02) (26, 2.02109454814955180613e-01) (27, -2.38429756568640655034e-01) (28, -6.34712843850819496971e-01) (29, -3.58021543030608346836e-01) (0, 5.98047593063239624200e-01) (1, 2.62243977607228229143e-01) (2, 2.04593335698587848459e-02) (3, 2.96178260986302732682e-01) (4, 1.24529088278408972545e-01) (5, 1.62162442100934361955e-01) (6, -7.72951063221472695064e-02) (7, 7.62820764680221391485e-02) (8, -2.24570484790018370935e-01) (9, 1.17087651484682805231e-02) (10, 2.38282708096691664412e-01) (11, -9.12813693703409465008e-03) (12, 3.89116302803661717746e-01) (13, 2.97903763231828766500e-01) (14, 1.12211491992688414121e-01) (15, -7.83442906945186257062e-01) (16, 3.21193787957029575075e-01) (17, 1.84305783761749220062e-01) (18, -1.07292209944445507408e-01) (19, -1.39096982560291654307e-01) (20, 4.10385238735713642200e-01) (21, 6.02562141844425025461e-01) (22, 2.31006811934872158254e-01) (23, 5.92514815762122393217e-01) (24, 1.26614060737268641077e+00) (25, 6.43872704176304155865e-01) (26, 2.99933497742281944543e-02) (27, -1.01921291208568742803e+00) (28, -4.18084876437866004295e+00) (29, 5.38026283240789049422e-01) (0, 4.74620816350326324429e-01) (1, 8.45237989960914565257e-02) (2, -1.10646942009975240984e-01) (3, -3.06237356274188521343e-01) (4, 1.53099308414967716363e-01) (5, 1.94870161882708448076e-01) (6, -3.20086157054990383397e-01) (7, 1.85826416609588956907e-01) (8, 1.68680935710900342661e-01) (9, -3.01680099705667503773e-01) (10, 4.69678001307195641667e-02) (11, -3.21422486251888683828e-01) (12, 1.36806125234185060879e-01) (13, -2.25198931865443457978e-01) (14, -1.68658919429404113854e-01) (15, -1.63964055976721867491e-01) (16, -4.21002042622763805735e-01) (17, -2.27581074767653157576e-01) (18, -3.52313163650667282578e-01) (19, -4.39224982240023764657e-02) (20, -5.18154332334677669714e-02) (21, -2.61950311029638185922e-02) (22, 5.12745963212446032031e-01) (23, 4.36550552844164219124e-01) (24, 6.90770916696607506502e-01) (25, 5.14881341050144270000e-01) (26, 2.76410526729440220173e-01) (27, 4.87188940946274018362e-01) (28, 5.16667350186026608228e-01) (29, -4.91494721378146759427e-01) (0, 6.02370436311595244816e-02) (1, -1.14935126932094733299e-01) (2, 1.13383094764277450595e-01) (3, -2.18373496460644821171e-02) (4, -1.16475995321359021561e-01) (5, -1.53718140168595668316e-01) (6, 1.90705966412263241971e-02) (7, 2.78191903110072025207e-01) (8, -6.92540866813979721917e-02) (9, 1.70036110246178817640e-01) (10, 2.60684240081012486012e-01) (11, 4.50213322986265873649e-01) (12, 3.44427706931315968930e-01) (13, 3.96199173646359592560e-01) (14, 1.68018267148672989508e-01) (15, 7.92766571099078887208e-02) (16, 1.50452791629270221652e-01) (17, 4.06608325531037234635e-02) (18, 3.14314058013941688419e-01) (19, -1.88105047119704882341e-01) (20, 7.47635286802758869396e-02) (21, 2.24076292020584377784e-01) (22, 3.77253504755206831023e-02) (23, 3.65256949456186641445e-01) (24, 7.10552471592556383895e-02) (25, 2.77218414478780039722e-01) (26, -5.94710897794487602930e-02) (27, 1.97910446504625914255e-01) (28, -3.00668016036154672754e-01) (29, -3.50560376602093104470e-01) (0, -1.83642013668230824619e-01) (1, -3.38309240131203781132e-01) (2, 1.72077328257814549106e-01) (3, 2.47346409855013465995e-01) (4, -4.60760315228375197383e-02) (5, 2.77445836149293190154e-01) (6, -4.80589157360251997830e-02) (7, 3.74782949882422611321e-01) (8, 2.54921603071347646630e-01) (9, 8.37080448677983701700e-02) (10, 2.33475920368251599335e-01) (11, 2.01488534077095216013e-01) (12, 3.47438236638893463426e-02) (13, 1.66892406866244236152e-01) (14, -7.49852583275860462564e-01) (15, 3.66344866760067611189e-01) (16, -3.88874781583064543788e-02) (17, 8.79372910087040798865e-02) (18, 3.31967442680458080240e-02) (19, 3.47748581888474017632e-01) (20, 1.51025375937781314306e-01) (21, 9.00655250441180554866e-01) (22, 2.95330254611288929578e-02) (23, -1.26813177701571074690e-02) (24, 6.57254648853592970958e-01) (25, -9.37431994037528637520e-01) (26, -5.23185213242566837799e-01) (27, -2.38202116365723332025e-01) (28, -1.74057601895623292876e+00) (29, 5.96748029016459069496e-01) (0, -1.21087808433852625600e-01) (1, 2.58491330584432084383e-02) (2, -8.44761651761636866986e-02) (3, 2.17268305081408957813e-01) (4, -1.08890541995247502882e-01) (5, 9.25629642749448006134e-02) (6, 2.27367057820096696297e-01) (7, 1.12306597591751058940e-01) (8, 5.43557056335965960159e-02) (9, 2.88595067204662714122e-01) (10, -1.71850309036961662601e-01) (11, 1.42904653397637831924e-01) (12, -1.75963827931794408732e-01) (13, 2.98431563848758463209e-01) (14, -7.77732718963524000122e-02) (15, 2.17425273861043266699e-01) (16, 1.80350044423357669388e-01) (17, -8.10162268838737209542e-02) (18, 1.62605626201865333114e-01) (19, 4.98325027028234807114e-02) (20, -3.41209053495583752857e-02) (21, 4.27854692204955866508e-02) (22, -1.75840605603790778311e-01) (23, -4.18461006397928755862e-02) (24, 2.66694310114533872369e-01) (25, 2.94834514440176442829e-01) (26, -3.16785339153734177287e-02) (27, -2.13762957056032792957e-01) (28, -7.72334752765022169996e-01) (29, 3.96314638124114049234e-01) (0, -3.18466948456092358022e-01) (1, -2.19123916885408415167e-01) (2, -1.38174211115452277854e-01) (3, -5.27550805416173787532e-02) (4, -1.55361729727428760084e-01) (5, 2.78138676785630485633e-02) (6, 3.19631457225142343037e-02) (7, 7.47454560181387700490e-02) (8, 5.18446534703341233019e-02) (9, 9.12531250196002841069e-02) (10, 1.03843788817591139995e-01) (11, -2.79892019216626264377e-02) (12, -1.21231350819872865654e-01) (13, 6.00461433504697328356e-02) (14, -2.89789405352866236143e-01) (15, 1.15436937509693124393e-01) (16, -5.51722830589495075171e-02) (17, 6.40299528976403936609e-02) (18, 4.89982669219006378158e-02) (19, 5.56569080255284245884e-02) (20, 1.89300763509617671343e-02) (21, 1.64774460216835560988e-01) (22, 3.26192166833038477147e-01) (23, 4.48826152864526761732e-01) (24, 1.08312107660728920711e-01) (25, 7.97466777004443572174e-02) (26, -6.13422932460165187818e-02) (27, -4.14197201935809833362e-01) (28, -1.47272842896529021495e+00) (29, 1.30637745708182428928e-01) (0, -1.68980180054060930006e-01) (1, -1.43701360977319780865e-01) (2, -1.97245626362029857770e-01) (3, -5.48539919417255494860e-02) (4, 1.13276787186809432817e-01) (5, -2.92593794524775796528e-01) (6, 6.81771943598363516781e-02) (7, -3.56112469499513584203e-01) (8, 5.24867307746078662345e-03) (9, 2.41417390316730692823e-02) (10, -2.79024966382324879355e-01) (11, 6.80548253133281093319e-03) (12, -3.63660784698335459719e-01) (13, -1.01342284158991380316e-01) (14, -2.94521742810475661845e-01) (15, 6.17762677848901903266e-02) (16, 1.54290667983172785638e-01) (17, -2.71896290145869946875e-02) (18, -3.55154700733948558433e-01) (19, -4.31310171367717126722e-02) (20, -5.53073988081480893975e-01) (21, -2.98224437026142208396e-01) (22, -3.93323045273231752805e-01) (23, 1.44958339028556898453e-01) (24, 1.93832599467539772042e-02) (25, 2.57769062939382009869e-01) (26, -7.04187293319926636143e-03) (27, 2.08039674732709775618e-02) (28, -3.33049902582551113350e-02) (29, -6.21055616751900796402e-01) (0, 1.60990909763198658533e-01) (1, -2.52805169875635282750e-01) (2, 5.68619407343330801607e-02) (3, -1.15767273455651201197e-01) (4, -9.38984501150043476825e-02) (5, -1.76782630752402684926e-02) (6, -5.88664011392102323739e-02) (7, 2.02026448056562363265e-01) (8, 8.67190738838886504558e-02) (9, 2.11543455344326281065e-02) (10, 1.13894092869117974365e-01) (11, 1.10412969788349385469e-01) (12, -1.07237105818404468427e-01) (13, -2.73074833803374703023e-02) (14, 1.92732543260949990005e-01) (15, 2.85616260444709779698e-01) (16, -6.54627066457431072699e-02) (17, 9.41708519639959662495e-03) (18, -9.77557003563470500174e-02) (19, 5.51141990602975681557e-02) (20, 2.13045117015064039423e-01) (21, -2.72538050175949349285e-02) (22, 7.77733755456715275534e-02) (23, -2.07938855932534895354e-02) (24, 2.85557242444909875623e-01) (25, -1.67841059539201115092e-01) (26, -1.65292679164894845689e-01) (27, -3.74796988690261623223e-01) (28, -7.30764938650520723407e-01) (29, 2.17076268036223464508e-02) (0, 2.74272486815198224264e-01) (1, 3.60292999791909929197e-02) (2, 6.49759066754723307868e-02) (3, 8.00554571540309511946e-02) (4, -1.43433270546582114502e-01) (5, -1.74280464055591277628e-01) (6, 1.30421649017915447510e-01) (7, -5.90225487287344974252e-02) (8, -5.80334267815980631156e-02) (9, 3.59798325157225928894e-01) (10, 3.35669221248791782575e-01) (11, 1.31703086395747154258e-01) (12, 6.24004462839884838088e-02) (13, 2.42996905968788506902e-01) (14, -3.03874121469067427770e-02) (15, -9.10424745418071723613e-01) (16, 5.60666028056625784237e-02) (17, -2.10585374276806319704e-01) (18, 4.47922028426871232654e-01) (19, 1.10560608695063011808e-01) (20, 4.79643241066354877877e-02) (21, 2.82262597194579745175e-01) (22, -4.89649599954756972742e-02) (23, -1.78001197737474026184e-01) (24, 2.53100003983061150326e-01) (25, 1.53351784810389968339e-01) (26, -2.57349371124791725940e-01) (27, -1.52951727980868062984e-01) (28, 6.21755109167944297610e-01) (29, 2.80114019260650159993e-01) (0, 1.64493904933600987306e+00) (1, -6.26650063586096373047e-02) (2, -1.52882767152603439575e-02) (3, -7.97652747805538270276e-02) (4, 8.01969953438377153310e-02) (5, -1.57571555292095849543e-01) (6, 7.06079828612245080643e-02) (7, -3.97578666982721817824e-01) (8, -4.18741612215411007636e-01) (9, -2.78078375313313752581e-01) (10, -7.14848617585641110672e-02) (11, -3.18432020541091542754e-01) (12, -3.05432789803815996077e-01) (13, -2.27913929917972647027e-03) (14, -1.66273890130060081338e-01) (15, -9.16011918163097793588e-01) (16, -1.24230344375072160323e-01) (17, -3.16147395765284555669e-01) (18, -5.85308090900664601541e-01) (19, -5.29597741151833334428e-01) (20, -4.05191918438414788728e-01) (21, 5.16324488135031400837e-01) (22, 9.32055805544957594044e-01) (23, 1.70806177279890572529e-02) (24, -3.13866936316694322695e-02) (25, -2.19079555748202953191e-01) (26, -5.25019827471912781114e-01) (27, -3.98219924753709819676e-01) (28, -6.66455466291178355576e-01) (29, 3.74577831361178004155e-01) (30, 1.12183417240908345214e+00) (31, 6.97975415772036034134e-01) (32, -5.19181272887450862008e-01) (33, 6.07112018452469537344e-01) (34, 8.13910867854467312554e-01) (35, -4.10793279724861182256e-01) (36, 9.22816473396841363552e-01) (37, 5.91878004032456384031e-01) (38, -7.67016984235981552631e-02) (39, -6.77714827853599377505e-02) (40, -1.29090926846769066261e-01) (41, 5.23054747544412945714e-01) (42, -2.34366758867215890794e-01) (43, 1.66364469190177333147e-01) (44, -4.80107739194586158327e-01) (45, -1.40036726077485940145e+00) (30, -1.11883997803544674166e-01) (31, 8.39491736979833813592e-01) (32, 4.22023769499011935924e-01) (33, 3.35254429632842243514e-01) (34, 9.05959593564217513517e-01) (35, 6.25762796781509811339e-01) (36, 4.49711973003421638939e-01) (37, 1.26885547783022256674e+00) (38, 5.30635865368810466514e-01) (39, 9.17947532190196313628e-01) (40, 2.34958101903440186309e-01) (41, 8.55393996183072324868e-01) (42, 1.07942313452859717238e+00) (43, 2.70319766907223868468e-01) (44, 4.71398744248003598312e-01) (45, -3.79492135495162141723e-01) (30, 1.45919666276991066844e+00) (31, 8.21283726643545985979e-01) (32, -6.19744531333476511570e-01) (33, 3.03085551325202595674e-01) (34, 6.97553813792047727738e-01) (35, -3.89193016866606733561e-01) (36, 1.00057878590494864213e+00) (37, 9.04442208906676370361e-01) (38, -9.37950576095190335923e-02) (39, -2.29874804517309322405e-01) (40, -1.07907480917011581317e-02) (41, 7.34376661668860841736e-01) (42, -9.44427803070645000005e-01) (43, -1.32192576048489718321e-01) (44, -4.11902498587145782238e-01) (45, -1.14020971688439121117e+00) (30, 3.91683993424809140382e-01) (31, 4.96100235037728154452e-01) (32, 2.84635167556751833562e-01) (33, 4.47554636558335050545e-01) (34, 1.77964569715764908686e-01) (35, -2.74054439048641684806e-01) (36, 5.71053576888841618597e-01) (37, 1.80090989444619820059e-01) (38, 4.13464179814771404242e-01) (39, 3.73216138482723724934e-01) (40, -4.35839874648460190443e-01) (41, 6.00241837239069653265e-01) (42, 6.30513510482842848281e-02) (43, -1.56033513669117634981e-01) (44, -4.26629419711651303171e-02) (45, 4.53426917446950739077e-01) (30, -6.74595855174685787858e-01) (31, 7.76057541424688968057e-01) (32, 3.08037952178425666894e-01) (33, 4.11491283357155734901e-01) (34, 4.59511072583440538519e-01) (35, 1.31789009006676061109e-01) (36, 4.87432541493684923228e-01) (37, 7.77687929654360399212e-01) (38, -9.96817281287480996821e-03) (39, 4.51563090264054556311e-01) (40, -7.46642738475109812857e-02) (41, 4.13596149314139682751e-01) (42, 1.61605853083490180744e+00) (43, 9.34400948789771042258e-03) (44, 1.07432695024097957931e-02) (45, 3.53274089652288736385e-01) (30, 6.00668557976181127778e-01) (31, 4.43006309667607844904e-01) (32, 1.65046915999467247449e-01) (33, 1.96147822121682247065e-01) (34, 5.27853870466048591403e-01) (35, 5.69314329914714312153e-01) (36, 2.53175225264076597664e-01) (37, 4.83828099602565397941e-02) (38, 7.93500161535042325411e-01) (39, -5.39541081124750299125e-01) (40, 4.53129054708347411839e-01) (41, 2.63204905564465019285e-01) (42, 5.36450783476935755267e-01) (43, 6.91100598533276877511e-01) (44, 6.96259541392077907496e-01) (45, 7.27528212438382643201e-02) (30, 8.36914729697833981170e-01) (31, 2.18910690061595081257e-01) (32, -7.12691765039116909008e-01) (33, -1.17156120648888792402e-01) (34, 5.98164199881435987294e-01) (35, -1.49748021687732563861e-02) (36, 7.06360561909644246725e-01) (37, 4.71217781028126725396e-01) (38, 2.55267829091564016700e-03) (39, -4.19499605097915229113e-01) (40, -2.07096326319590379184e-01) (41, 2.55296155208913189139e-01) (42, 4.81927881207823871623e-01) (43, -3.66659168735331067457e-02) (44, 1.35949824717068873392e-01) (45, 6.11273546258646272022e-01) (30, 6.15617796681226653321e-02) (31, 2.55402327777385473873e-01) (32, 3.54142711726494530122e-01) (33, 1.35908612583560461928e-01) (34, 5.81836829466328975258e-01) (35, 4.92844209374044273098e-01) (36, 4.06923183825617096332e-01) (37, 4.11555050796541255220e-01) (38, -2.92899194191230005657e-01) (39, 2.05803803952330943705e-01) (40, 3.34607789992609983010e-01) (41, 1.87322123312638477710e-01) (42, 9.32192450655270676840e-01) (43, -9.55631334341340621386e-01) (44, 3.04463634621069345609e-01) (45, 2.93738972279805832244e-01) (30, -6.71028329396838457699e-02) (31, 7.79449122016849349492e-01) (32, 4.09411694082835564412e-01) (33, -2.47989670696440456243e-02) (34, 2.67702642520917299951e-01) (35, 6.45557128889403669669e-02) (36, 7.69190075910711645868e-01) (37, 3.53614158614264484370e-01) (38, -7.25903647791122930144e-02) (39, 3.57767480107669608169e-02) (40, 2.05591546585861734142e-01) (41, 3.73779975863080926590e-01) (42, 8.15857501707984766881e-01) (43, -1.54076104365928742354e-03) (44, -1.35780282835397225760e-01) (45, 5.29504613933720835739e-01) (46, 8.35625619519823753523e-02) (47, -4.70965112869528440553e-02) (48, 2.64778877191495898291e-01) (49, 1.05001335527511785450e-01) (50, -3.43805943527083490707e-02) (51, 3.07390893689393207566e-02) (52, 1.46431731666525427604e-01) (53, -1.60365946244208273930e-01) (54, -4.17641307982333648274e-02) (55, 3.45518194663688882340e-01) 
